// Weights: 64x64 matrix (ternary: 00=-1, 01=0, 10=+1)
089A886A82000082282988A90082A828
81A20AAA00908968A2AAAAA2882290A8
9898A282222A88068212828822088089
8AAA0A9081221018A8421A81000A80A2
1AA22666008829A2A201A808A26828A8
A089212088890120A029AA0060610A2A
56022888AA6A2A22288AA82A88402000
A925009AA80A22040928021889A2AA08
A088898A02909882A0A0200121A42AA4
A2118A80A6622A0028099A222A8022A2
9A100098108A092280086A24200A8108
40A91610906A88226AA126080A0280A0
2280A928AAA080280A2A89AA1A028699
2AA10A08A8288880282A088898AAA240
A9000AA8A08A002120A2509288A80082
2108422A80A226800A4A2452A4919200
92A1A06528A12A8928A20282298A8809
A22986460A006A26888222900AAA2A06
480A22A2888901208AA808A9282AA40A
8AA106A980408481000A482066800A8A
880A04080A88AA88401822A8822A822A
0080A00A098460009222A88049A00028
824AA8052A62228668085A8AA08A21A1
A80822A0A8AAA1000A241A000A212A22
4A22A92108810882008A2224A0AAA0A0
91008A26282888801200046198A60A00
900A8A900192A9800A8A208680824609
4002A88AA8228AA68628A40882806028
82A888821008A260A89482024A2A2402
04800A2A0282A8A18A822852A9AA202A
A90A08A0A61A28202A2A8840882080AA
0802120A0010A820A822A0A82A2A0862
2802808A8828001A8AA92A4290A98828
801188800AA0050A281A092AA22200A4
02006002A0684A480821086A09A924A4
282188228001A824A4AA92A0AAAA8600
0908A88A0222A820022228AA208AA000
A20A8AAAA882A12AA86886A0A2682AA9
422A002A8A228A980AA00100A8200082
081289211206AA1A819620608A622200
8A820A88202A841802584A8801A50880
0880888A80980A8A2A822A8002820221
1AAA8082A20022448062AAA028920A24
22A20092229080582848A442A80A822A
00280202868AA898A26089480288A888
A888100A00A0282808220892210A0A12
08404A8008088A00AA08822AA86028AA
88A0882A2AA088A028861008428A9088
21AAA00A88A02A0A0806A4480021AA02
822AA68028219024A182AA24A2028892
0A012902088AA1A0020AA24A0022A86A
22881A9A22020A00A8AAA26282920000
5210AA8018A0010A820A1002A0029602
8A02222A8811880AA090A1A20A2AA409
048A12860AA8A800A201022A826AA882
026280A8AA0A8428028A88040A2A2A19
0A22A88A882609266A2A2822A0880601
2520A08A124A2000A80A0428200209A2
66868802200080A4200220892221AA80
0481A8400A00888882AA020A002A2182
220800210889A4208AA04A084AA08AAA
02622424A8660008A8AAA220A188A026
00A8A9081A0AAA2A5120208A4848A498
408188080802800AAA25821A429088A8
